<signature>
GetIKPositionWeight(AvatarIKGoal)
</signature>
IK ゴールの移転したウェイト（0 = IK 前の元のアニメーション位置、1 = ゴール位置）。

IK ゴールは特定のボディパーツのターゲット位置および回転位置です。Unity によりターゲットを開始位置からどう移動するか計算できます（すなわち、アニメーションから得られた現在の位置および回転）。

IK により計算された位置は、スタートからゴールの間のどこかを示す 0 から 1 の範囲のウェイト値によっても影響を受けます。この関数によりゴールの位置の現在のウェイトの値を返します。

SA: ::ref::GetIKPosition, ::ref::SetIKPosition.
@param goal 照会された AvatarIKGoal。