<signature>
SetBlendShapeWeight(int,float)
</signature>
このレンダラの BlendShape のウェイトをセットする。
インデックスはこのレンダラにアタッチされたメッシュの Mesh::ref::blendShapeCount より小さい必要があります。
ウェイトがゼロのとき BlendShape は影響がなく、ウェイトが 1 のとき BlendShape が完全に有効となりますが、
ウェイトは ゼロから 1 の範囲に限定されません。

SA: ::ref::GetBlendShapeWeight, Mesh::ref::blendShapes.
